#ifndef MODEL_H
#define MODEL_H

const unsigned int wifi_model_tflite_len = 5312;
const unsigned char wifi_model_tflite[] = {
  0x1c, 0x00, 0x00, 0x00, 0x54, 0x46, 0x4c, 0x33, 0x14, 0x00, 0x20, 0x00, 0x1c, 0x00, 0x18, 0x00, 
  0x14, 0x00, 0x10, 0x00, 0x0c, 0x00, 0x00, 0x00, 0x08, 0x00, 0x04, 0x00, 0x14, 0x00, 0x00, 0x00, 
  0x1c, 0x00, 0x00, 0x00, 0x8c, 0x00, 0x00, 0x00, 0x14, 0x01, 0x00, 0x00, 0x4c, 0x09, 0x00, 0x00, 
  0x5c, 0x09, 0x00, 0x00, 0x3c, 0x14, 0x00, 0x00, 0x03, 0x00, 0x00, 0x00, 0x01, 0x00, 0x00, 0x00, 
  0x04, 0x00, 0x00, 0x00, 0x42, 0xf6, 0xff, 0xff, 0x0c, 0x00, 0x00, 0x00, 0x1c, 0x00, 0x00, 0x00, 
  0x3c, 0x00, 0x00, 0x00, 0x0f, 0x00, 0x00, 0x00, 0x73, 0x65, 0x72, 0x76, 0x69, 0x6e, 0x67, 0x5f, 
  0x64, 0x65, 0x66, 0x61, 0x75, 0x6c, 0x74, 0x00, 0x01, 0x00, 0x00, 0x00, 0x04, 0x00, 0x00, 0x00, 
  0x60, 0xff, 0xff, 0xff, 0x15, 0x00, 0x00, 0x00, 0x04, 0x00, 0x00, 0x00, 0x08, 0x00, 0x00, 0x00, 
  0x6f, 0x75, 0x74, 0x70, 0x75, 0x74, 0x5f, 0x30, 0x00, 0x00, 0x00, 0x00, 0x01, 0x00, 0x00, 0x00, 
  0x04, 0x00, 0x00, 0x00, 0x76, 0xf7, 0xff, 0xff, 0x04, 0x00, 0x00, 0x00, 0x0c, 0x00, 0x00, 0x00, 
  0x6b, 0x65, 0x72, 0x61, 0x73, 0x5f, 0x74, 0x65, 0x6e, 0x73, 0x6f, 0x72, 0x00, 0x00, 0x00, 0x00, 
  0x03, 0x00, 0x00, 0x00, 0x64, 0x00, 0x00, 0x00, 0x2c, 0x00, 0x00, 0x00, 0x04, 0x00, 0x00, 0x00, 
  0xb0, 0xff, 0xff, 0xff, 0x19, 0x00, 0x00, 0x00, 0x04, 0x00, 0x00, 0x00, 0x13, 0x00, 0x00, 0x00, 
  0x43, 0x4f, 0x4e, 0x56, 0x45, 0x52, 0x53, 0x49, 0x4f, 0x4e, 0x5f, 0x4d, 0x45, 0x54, 0x41, 0x44, 
  0x41, 0x54, 0x41, 0x00, 0xd4, 0xff, 0xff, 0xff, 0x18, 0x00, 0x00, 0x00, 0x04, 0x00, 0x00, 0x00, 
  0x19, 0x00, 0x00, 0x00, 0x72, 0x65, 0x64, 0x75, 0x63, 0x65, 0x64, 0x5f, 0x70, 0x72, 0x65, 0x63, 
  0x69, 0x73, 0x69, 0x6f, 0x6e, 0x5f, 0x73, 0x75, 0x70, 0x70, 0x6f, 0x72, 0x74, 0x00, 0x00, 0x00, 
  0x08, 0x00, 0x0c, 0x00, 0x08, 0x00, 0x04, 0x00, 0x08, 0x00, 0x00, 0x00, 0x17, 0x00, 0x00, 0x00, 
  0x04, 0x00, 0x00, 0x00, 0x13, 0x00, 0x00, 0x00, 0x6d, 0x69, 0x6e, 0x5f, 0x72, 0x75, 0x6e, 0x74, 
  0x69, 0x6d, 0x65, 0x5f, 0x76, 0x65, 0x72, 0x73, 0x69, 0x6f, 0x6e, 0x00, 0x1a, 0x00, 0x00, 0x00, 
  0x34, 0x08, 0x00, 0x00, 0x2c, 0x08, 0x00, 0x00, 0xdc, 0x07, 0x00, 0x00, 0xc4, 0x06, 0x00, 0x00, 
  0xa4, 0x06, 0x00, 0x00, 0x90, 0x06, 0x00, 0x00, 0x60, 0x06, 0x00, 0x00, 0x50, 0x02, 0x00, 0x00, 
  0x30, 0x02, 0x00, 0x00, 0x20, 0x01, 0x00, 0x00, 0x18, 0x01, 0x00, 0x00, 0x10, 0x01, 0x00, 0x00, 
  0x08, 0x01, 0x00, 0x00, 0x00, 0x01, 0x00, 0x00, 0xf8, 0x00, 0x00, 0x00, 0xf0, 0x00, 0x00, 0x00, 
  0xe8, 0x00, 0x00, 0x00, 0xe0, 0x00, 0x00, 0x00, 0xd8, 0x00, 0x00, 0x00, 0xd0, 0x00, 0x00, 0x00, 
  0xc8, 0x00, 0x00, 0x00, 0xc0, 0x00, 0x00, 0x00, 0xb8, 0x00, 0x00, 0x00, 0x98, 0x00, 0x00, 0x00, 
  0x7c, 0x00, 0x00, 0x00, 0x04, 0x00, 0x00, 0x00, 0x8a, 0xf8, 0xff, 0xff, 0x04, 0x00, 0x00, 0x00, 
  0x68, 0x00, 0x00, 0x00, 0x0c, 0x00, 0x00, 0x00, 0x08, 0x00, 0x0e, 0x00, 0x08, 0x00, 0x04, 0x00, 
  0x08, 0x00, 0x00, 0x00, 0x10, 0x00, 0x00, 0x00, 0x28, 0x00, 0x00, 0x00, 0x00, 0x00, 0x06, 0x00, 
  0x08, 0x00, 0x04, 0x00, 0x06, 0x00, 0x00, 0x00, 0x04, 0x00, 0x00, 0x00, 0x01, 0x00, 0x00, 0x00, 
  0xe9, 0x03, 0x00, 0x00, 0x0c, 0x00, 0x1c, 0x00, 0x18, 0x00, 0x14, 0x00, 0x10, 0x00, 0x04, 0x00, 
  0x0c, 0x00, 0x00, 0x00, 0x50, 0x6c, 0x25, 0xdd, 0x05, 0x6d, 0x3d, 0x67, 0x00, 0x00, 0x00, 0x00, 
  0x02, 0x00, 0x00, 0x00, 0x02, 0x00, 0x00, 0x00, 0x04, 0x00, 0x00, 0x00, 0x0a, 0x00, 0x00, 0x00, 
  0x32, 0x2e, 0x32, 0x30, 0x2e, 0x30, 0x2d, 0x72, 0x63, 0x30, 0x00, 0x00, 0xfe, 0xf8, 0xff, 0xff, 
  0x04, 0x00, 0x00, 0x00, 0x0b, 0x00, 0x00, 0x00, 0x66, 0x70, 0x31, 0x36, 0x61, 0x63, 0x63, 0x66, 
  0x70, 0x33, 0x32, 0x00, 0x16, 0xf9, 0xff, 0xff, 0x04, 0x00, 0x00, 0x00, 0x10, 0x00, 0x00, 0x00, 
  0x31, 0x2e, 0x31, 0x35, 0x2e, 0x30, 0x00, 0x00, 0x00, 0x00, 0x00, 0x00, 0x00, 0x00, 0x00, 0x00, 
  0x18, 0xee, 0xff, 0xff, 0x1c, 0xee, 0xff, 0xff, 0x20, 0xee, 0xff, 0xff, 0x24, 0xee, 0xff, 0xff, 
  0x28, 0xee, 0xff, 0xff, 0x2c, 0xee, 0xff, 0xff, 0x30, 0xee, 0xff, 0xff, 0x34, 0xee, 0xff, 0xff, 
  0x38, 0xee, 0xff, 0xff, 0x3c, 0xee, 0xff, 0xff, 0x40, 0xee, 0xff, 0xff, 0x44, 0xee, 0xff, 0xff, 
  0x48, 0xee, 0xff, 0xff, 0x66, 0xf9, 0xff, 0xff, 0x04, 0x00, 0x00, 0x00, 0x00, 0x01, 0x00, 0x00, 
  0xf5, 0xa9, 0x98, 0xba, 0x3f, 0xb9, 0xce, 0x37, 0xa0, 0xb9, 0x41, 0xb0, 0x92, 0xb9, 0x85, 0x33, 
  0x64, 0x38, 0x8f, 0xb6, 0x39, 0xb9, 0x05, 0x38, 0xba, 0x2b, 0x89, 0xa6, 0xb1, 0xb9, 0xba, 0x34, 
  0xe6, 0xb3, 0x6f, 0x3d, 0xb6, 0x39, 0xa8, 0xb4, 0x6a, 0x30, 0x2b, 0xb6, 0x97, 0xb5, 0xeb, 0xb0, 
  0x8d, 0xad, 0xe7, 0x38, 0x73, 0xb8, 0x99, 0xb5, 0xac, 0x2d, 0x85, 0xb7, 0x10, 0x38, 0x67, 0x2d, 
  0x73, 0xb9, 0x2c, 0x35, 0x99, 0x37, 0x2f, 0xa5, 0x83, 0x39, 0x91, 0xad, 0xa8, 0x31, 0x73, 0x34, 
  0x84, 0xb1, 0xee, 0xac, 0x0a, 0xb8, 0x34, 0xb2, 0x60, 0xb6, 0x50, 0xb0, 0x6c, 0x38, 0xcc, 0xb4, 
  0x0b, 0x30, 0x91, 0x3b, 0x61, 0x9f, 0x14, 0xb4, 0x9d, 0xa8, 0x4e, 0xb7, 0x09, 0x36, 0xd6, 0xb4, 
  0xc3, 0xb8, 0xfb, 0x36, 0x22, 0xb6, 0xf7, 0xaf, 0xc2, 0xa7, 0xd0, 0xac, 0x86, 0xba, 0x94, 0xb4, 
  0x51, 0xb1, 0x2b, 0xb9, 0xe6, 0x38, 0xc4, 0x2b, 0xc9, 0x3c, 0x78, 0x30, 0x6a, 0x38, 0xbb, 0x35, 
  0x43, 0xb7, 0x81, 0x35, 0x46, 0x31, 0xb1, 0xb1, 0x36, 0xb4, 0xca, 0x32, 0xea, 0x3a, 0xe1, 0x2c, 
  0x99, 0xb6, 0xc4, 0x36, 0x67, 0xae, 0xe9, 0xb5, 0x8d, 0xa1, 0x68, 0xb7, 0x36, 0xb4, 0xff, 0x38, 
  0xc1, 0xb4, 0xba, 0xb8, 0xe4, 0x39, 0xc8, 0xb7, 0x9d, 0xb1, 0x20, 0xb8, 0x4c, 0x38, 0x83, 0xb3, 
  0xc5, 0x2c, 0x04, 0x36, 0x66, 0x36, 0x69, 0xb5, 0x2e, 0x3d, 0x70, 0xb2, 0x6f, 0x3a, 0xb2, 0x34, 
  0x5e, 0xb1, 0xf7, 0xa8, 0x89, 0x27, 0x89, 0x25, 0x26, 0xb2, 0xd3, 0xb7, 0x67, 0xbb, 0xc5, 0xb2, 
  0x79, 0x38, 0x5d, 0xb6, 0x75, 0xb9, 0x99, 0x31, 0x2e, 0xb6, 0x6e, 0x34, 0x41, 0xab, 0xe1, 0xb4, 
  0xa0, 0x2e, 0xec, 0xb5, 0x42, 0xbe, 0xfa, 0xb1, 0x8d, 0x2d, 0x65, 0x35, 0x78, 0xb5, 0xc7, 0x37, 
  0x72, 0xfa, 0xff, 0xff, 0x04, 0x00, 0x00, 0x00, 0x10, 0x00, 0x00, 0x00, 0x2b, 0x3e, 0x9f, 0x34, 
  0xb4, 0x3e, 0x01, 0x40, 0x2f, 0xbd, 0x5b, 0x42, 0xf8, 0x37, 0x9c, 0x3c, 0x8e, 0xfa, 0xff, 0xff, 
  0x04, 0x00, 0x00, 0x00, 0x00, 0x04, 0x00, 0x00, 0xb2, 0x34, 0x3d, 0xc0, 0xa9, 0x3b, 0x99, 0xbb, 
  0xbb, 0x3d, 0xb3, 0xb9, 0xa6, 0xba, 0x3d, 0xb4, 0xb2, 0xc4, 0x5e, 0xb5, 0x10, 0xb5, 0xb0, 0xbc, 
  0x78, 0x3a, 0x6a, 0xc0, 0xd1, 0x3b, 0xfc, 0xc0, 0xb7, 0x3c, 0xcb, 0x36, 0xee, 0x39, 0x37, 0xb8, 
  0x53, 0x3e, 0x9a, 0x3d, 0x37, 0xad, 0xbc, 0x34, 0x4f, 0xc0, 0x4c, 0xac, 0xbe, 0xbc, 0xcf, 0xab, 
  0x39, 0xba, 0xcc, 0xbc, 0x4f, 0xbb, 0xb1, 0xc2, 0x41, 0x35, 0xc4, 0x38, 0x5d, 0xb6, 0xfa, 0x36, 
  0x50, 0x3c, 0x70, 0xb9, 0x47, 0xbb, 0xaf, 0xb8, 0x06, 0xb9, 0x60, 0xba, 0x4b, 0xbb, 0x21, 0x33, 
  0x44, 0xbc, 0x80, 0x3f, 0xb7, 0xbd, 0xb4, 0x34, 0x0c, 0xbd, 0x08, 0xc0, 0x8d, 0x3b, 0x1c, 0x37, 
  0x88, 0xbf, 0x67, 0xb5, 0xbe, 0xac, 0xb9, 0x38, 0x2d, 0x3e, 0xe9, 0xba, 0x37, 0x38, 0xc4, 0x33, 
  0xc5, 0xb8, 0x40, 0xbc, 0x88, 0xbc, 0x9c, 0x3b, 0xc8, 0x38, 0x73, 0x38, 0x8e, 0xbb, 0x2c, 0xbd, 
  0xef, 0xbc, 0x6b, 0xb9, 0xb8, 0x3c, 0x92, 0xbb, 0xe9, 0x45, 0xf6, 0xbb, 0x10, 0xbd, 0xe0, 0x3c, 
  0x17, 0x42, 0xfc, 0xbc, 0x8b, 0xaf, 0xfd, 0x3e, 0x74, 0xbc, 0xf5, 0xa7, 0xaa, 0x39, 0xec, 0x31, 
  0x27, 0x40, 0x4a, 0xba, 0x45, 0xbd, 0x58, 0x34, 0x61, 0xc0, 0x2e, 0xb3, 0xad, 0xbd, 0x95, 0x3c, 
  0xe6, 0xb8, 0xb1, 0x3c, 0x61, 0x3b, 0xd0, 0xc2, 0x30, 0xb6, 0xb8, 0xa8, 0xda, 0xb6, 0x72, 0xbe, 
  0xae, 0xc0, 0x21, 0x3d, 0x10, 0x33, 0xa2, 0x3d, 0xfa, 0x42, 0xad, 0x39, 0x75, 0x16, 0xf4, 0x3a, 
  0xb2, 0x3d, 0xb1, 0x31, 0x27, 0x3c, 0xc3, 0x33, 0x37, 0x3a, 0x4e, 0x3f, 0x67, 0x34, 0xfc, 0xb6, 
  0x0d, 0xbe, 0x40, 0xb5, 0xee, 0x3a, 0xf5, 0x3c, 0x08, 0xc0, 0x35, 0xbf, 0xab, 0xb8, 0x99, 0xbe, 
  0x16, 0xb9, 0x1d, 0xbe, 0x1e, 0xb6, 0xd7, 0xb6, 0x0b, 0xb1, 0xe3, 0xb6, 0x5f, 0xbc, 0x66, 0xba, 
  0xc2, 0x31, 0xb6, 0x38, 0x89, 0xc0, 0x34, 0xb7, 0x95, 0x40, 0xdd, 0xb8, 0xe6, 0x2c, 0x20, 0xbf, 
  0xa4, 0xbe, 0x84, 0x3c, 0x81, 0xb7, 0x0e, 0xc0, 0x53, 0xbe, 0x41, 0xc1, 0xf4, 0xbe, 0x30, 0xb6, 
  0x64, 0xa8, 0x57, 0x32, 0xba, 0x39, 0x99, 0xb7, 0x5a, 0xb9, 0xe2, 0xb7, 0xe2, 0xbd, 0x98, 0x3c, 
  0xd2, 0x35, 0xd1, 0xb6, 0x27, 0x37, 0x5f, 0x38, 0x51, 0x2e, 0xf8, 0xba, 0x20, 0x39, 0x25, 0xbf, 
  0xd5, 0x3d, 0x24, 0x35, 0x95, 0xbd, 0x42, 0x3e, 0x8f, 0x3d, 0x5d, 0x33, 0x11, 0x3c, 0xb3, 0x35, 
  0x3d, 0xc0, 0x63, 0x31, 0x99, 0x33, 0x18, 0xbc, 0xef, 0x3b, 0x9c, 0xb0, 0x9c, 0xb8, 0x9c, 0xb1, 
  0x48, 0xc0, 0xc6, 0xbc, 0x70, 0x39, 0xf6, 0x3a, 0x73, 0xc2, 0xc5, 0xbd, 0x76, 0x3d, 0x21, 0xbb, 
  0x61, 0x36, 0xa2, 0xbe, 0xea, 0x38, 0xc6, 0xc1, 0x73, 0xb6, 0x9a, 0x3e, 0x92, 0xb7, 0xb9, 0x38, 
  0x19, 0x26, 0x39, 0x38, 0x76, 0xc0, 0x78, 0x3e, 0xec, 0xc4, 0x6e, 0xb9, 0x18, 0xb6, 0x06, 0xc0, 
  0x2b, 0x3e, 0x18, 0x3d, 0xdb, 0xbe, 0xd5, 0x37, 0xe6, 0xb5, 0x25, 0xbf, 0xe6, 0x3d, 0x4a, 0x38, 
  0x99, 0xb9, 0x2e, 0xbe, 0xf6, 0x3c, 0xb5, 0xba, 0xaf, 0x3e, 0xf4, 0x39, 0xf2, 0xc0, 0x15, 0xb8, 
  0x59, 0xb4, 0xa9, 0xb5, 0x6b, 0x2a, 0xa9, 0xbd, 0xad, 0x32, 0x3e, 0x3d, 0xc4, 0xad, 0x91, 0x38, 
  0x19, 0x36, 0xb4, 0x3e, 0x2f, 0xb9, 0x95, 0xaf, 0x21, 0xbf, 0x6d, 0xb8, 0xa1, 0xb7, 0x28, 0xb6, 
  0x48, 0x41, 0x85, 0x34, 0x92, 0xb8, 0x6c, 0x3b, 0x40, 0xbd, 0xdf, 0x35, 0xef, 0x3f, 0x0b, 0x2f, 
  0xd0, 0xbd, 0xba, 0xb7, 0x6f, 0xb3, 0x77, 0xb1, 0x83, 0xc3, 0x08, 0x3e, 0x5d, 0x3c, 0x7d, 0xbd, 
  0xbe, 0xbc, 0x55, 0x3d, 0x02, 0x3b, 0xb7, 0x3c, 0x98, 0x29, 0x28, 0x3d, 0xc0, 0x35, 0x20, 0xbf, 
  0xfb, 0x34, 0x91, 0xa0, 0x21, 0x3b, 0x00, 0xc1, 0x1e, 0x41, 0xb4, 0xb0, 0xae, 0x35, 0xdb, 0x3d, 
  0x1a, 0x3c, 0xa2, 0xba, 0x6e, 0x32, 0x8b, 0xc2, 0x23, 0xb7, 0x56, 0x38, 0xf1, 0x34, 0x96, 0x3b, 
  0x59, 0x38, 0xb9, 0xbb, 0xd6, 0x3b, 0x41, 0x3c, 0x0e, 0xbe, 0x13, 0xc0, 0xdf, 0x3e, 0xb4, 0x34, 
  0x53, 0xbc, 0x2a, 0xbd, 0xa5, 0x3c, 0x5d, 0x39, 0xf0, 0x35, 0x14, 0x39, 0x9b, 0xb2, 0x0a, 0x3e, 
  0xdc, 0xb6, 0x0b, 0x32, 0xe8, 0xbd, 0x02, 0x41, 0xd8, 0x45, 0x8e, 0xbb, 0xb6, 0xbb, 0x2e, 0xaf, 
  0x77, 0x3d, 0xb8, 0x3e, 0x9c, 0x2e, 0x0c, 0xba, 0xe5, 0xb9, 0x28, 0xbd, 0x8f, 0xba, 0xf2, 0xb4, 
  0xb8, 0x40, 0x67, 0x2e, 0x86, 0xbb, 0xc7, 0x30, 0x6b, 0x3e, 0x7c, 0xbc, 0xda, 0x3a, 0xb3, 0x1e, 
  0x37, 0xb4, 0x47, 0xbc, 0xa2, 0x37, 0x79, 0xb4, 0xe8, 0xba, 0x7d, 0x38, 0xf4, 0xbc, 0x94, 0xb5, 
  0x3a, 0x3d, 0x61, 0x36, 0xb7, 0x37, 0x4f, 0x3b, 0x61, 0xbb, 0x03, 0xb7, 0x03, 0x2e, 0x90, 0xb4, 
  0xda, 0x3a, 0x17, 0x3e, 0x09, 0xab, 0x8b, 0x3d, 0xbc, 0xbe, 0xe0, 0xbf, 0xfe, 0x39, 0xaf, 0xa5, 
  0x1f, 0xb3, 0x86, 0x38, 0x56, 0xb6, 0x0b, 0x34, 0xb1, 0x3a, 0xf8, 0xb4, 0x14, 0x2f, 0x55, 0x30, 
  0x1e, 0xbf, 0x76, 0x3c, 0xfb, 0xba, 0x29, 0xc1, 0xca, 0xae, 0x1a, 0xa9, 0xd4, 0x39, 0xa3, 0x2f, 
  0x6c, 0xc0, 0x58, 0xbf, 0x08, 0x38, 0xaf, 0x3a, 0x7e, 0xc4, 0x3b, 0xb7, 0x01, 0x35, 0xe7, 0x3d, 
  0x3f, 0x2e, 0x61, 0xbf, 0xa1, 0x36, 0x0a, 0xba, 0xea, 0x29, 0x5b, 0x3b, 0x58, 0xbe, 0x1f, 0xb7, 
  0x83, 0xbc, 0xe0, 0xbd, 0xa3, 0x3d, 0x89, 0xb7, 0x6e, 0x3f, 0x4d, 0xba, 0xb6, 0xbe, 0xbe, 0x2f, 
  0x6f, 0x29, 0x5d, 0xb5, 0x43, 0xbe, 0x57, 0x3a, 0xdf, 0x29, 0xb7, 0x3a, 0xa1, 0xb0, 0x77, 0xaa, 
  0x27, 0x32, 0xef, 0x3b, 0xaf, 0x3a, 0xbe, 0xbb, 0xce, 0xbe, 0x88, 0x2a, 0xae, 0x30, 0x60, 0xb8, 
  0x3a, 0x35, 0xd9, 0xbd, 0x61, 0x31, 0x42, 0x3d, 0x38, 0x3c, 0x2c, 0x3d, 0x4f, 0xbe, 0x42, 0x36, 
  0x10, 0xbe, 0x15, 0xbe, 0x81, 0x3c, 0x67, 0x3d, 0xda, 0x3e, 0xd6, 0xbb, 0x11, 0x35, 0x50, 0x36, 
  0xb3, 0xb9, 0x9a, 0xb9, 0xf6, 0x39, 0xf8, 0xc1, 0x65, 0x3a, 0xef, 0xba, 0xd6, 0x35, 0x41, 0x3a, 
  0x51, 0x3c, 0xde, 0x39, 0xff, 0xbf, 0x06, 0xbb, 0x97, 0x31, 0xad, 0x2e, 0x73, 0xb7, 0x0f, 0xbc, 
  0xa3, 0x42, 0x57, 0xc2, 0x51, 0xb7, 0x8b, 0x3b, 0x21, 0x3d, 0xce, 0x36, 0x9b, 0xc0, 0x72, 0x3d, 
  0xda, 0x3b, 0xe1, 0xbc, 0x00, 0x35, 0x47, 0xac, 0xd8, 0xc2, 0x5a, 0x38, 0xa7, 0x3f, 0x24, 0x32, 
  0xd5, 0xa9, 0xf6, 0xba, 0xe6, 0x3f, 0x2d, 0xc2, 0x65, 0xb7, 0x1e, 0x3b, 0x1b, 0x33, 0x8b, 0xaf, 
  0x0d, 0xc0, 0x03, 0x3b, 0x58, 0x3c, 0xe6, 0x40, 0x6a, 0x44, 0x09, 0xba, 0xfa, 0x31, 0x3b, 0xbf, 
  0xf0, 0x37, 0x4b, 0x2f, 0x42, 0xb9, 0x8c, 0x37, 0x24, 0xbd, 0xae, 0xbf, 0xa8, 0x3d, 0xcf, 0xbb, 
  0xae, 0xb5, 0x19, 0xaa, 0x80, 0xae, 0x12, 0xb4, 0xf4, 0x38, 0x9d, 0xbb, 0xd4, 0x3b, 0x34, 0xbd, 
  0xb8, 0x2b, 0x93, 0x3c, 0x76, 0xbe, 0x3c, 0xc3, 0xb7, 0x33, 0xe3, 0xbf, 0xf5, 0x34, 0xab, 0xbd, 
  0x97, 0xb5, 0xc6, 0xbf, 0x7b, 0x33, 0xc9, 0x38, 0x64, 0xc6, 0xcb, 0x30, 0xaf, 0x3a, 0x48, 0xbf, 
  0x68, 0x3a, 0x18, 0x2d, 0xcc, 0x3a, 0x8f, 0xc0, 0xe7, 0xb8, 0x4a, 0x2a, 0x01, 0x33, 0x6d, 0x32, 
  0xd9, 0xbf, 0x75, 0xb2, 0xff, 0x3d, 0xec, 0xbb, 0xe5, 0xbe, 0x01, 0xbc, 0x6c, 0x3e, 0xa0, 0xac, 
  0x28, 0xb9, 0x69, 0xba, 0xac, 0xad, 0xe1, 0xc2, 0x9a, 0xfe, 0xff, 0xff, 0x04, 0x00, 0x00, 0x00, 
  0x20, 0x00, 0x00, 0x00, 0xd9, 0x3e, 0x1c, 0x3e, 0x74, 0x3a, 0xec, 0x3a, 0x0f, 0x40, 0x49, 0x3e, 
  0x86, 0x3d, 0xaf, 0xb0, 0x0e, 0x3c, 0x35, 0x2c, 0x2f, 0x3c, 0xbb, 0x3d, 0x83, 0x38, 0xbe, 0x34, 
  0x8d, 0x39, 0x9d, 0x40, 0xc6, 0xfe, 0xff, 0xff, 0x04, 0x00, 0x00, 0x00, 0x02, 0x00, 0x00, 0x00, 
  0x37, 0xa6, 0x00, 0x00, 0xd6, 0xfe, 0xff, 0xff, 0x04, 0x00, 0x00, 0x00, 0x10, 0x00, 0x00, 0x00, 
  0xd7, 0xba, 0x9d, 0x37, 0x30, 0x3a, 0x34, 0x36, 0xd7, 0x3b, 0x6a, 0x38, 0xa7, 0x39, 0xee, 0xb9, 
  0xf2, 0xfe, 0xff, 0xff, 0x04, 0x00, 0x00, 0x00, 0x00, 0x01, 0x00, 0x00, 0x17, 0x33, 0xcb, 0xb4, 
  0x08, 0x35, 0xf7, 0xb4, 0x3e, 0x35, 0xd4, 0x28, 0x66, 0xb0, 0x91, 0xb2, 0xa3, 0xae, 0x1c, 0x2d, 
  0xa5, 0x2e, 0x69, 0x38, 0x8c, 0x36, 0x26, 0x21, 0x16, 0xb3, 0x04, 0xb7, 0xe9, 0x35, 0x27, 0xb6, 
  0x98, 0x33, 0x83, 0x30, 0x19, 0x33, 0xdb, 0x32, 0x9a, 0xb0, 0x94, 0xb4, 0x5c, 0x28, 0x9f, 0x2d, 
  0x42, 0x34, 0x4b, 0x33, 0x81, 0xb2, 0x41, 0xb5, 0x92, 0xac, 0x10, 0xb4, 0x79, 0xb1, 0x5e, 0x9f, 
  0x1f, 0x36, 0x88, 0x28, 0xe1, 0xb3, 0x0f, 0x28, 0xbe, 0xa1, 0xd6, 0x36, 0xff, 0x31, 0x30, 0x28, 
  0xdb, 0xb5, 0x6f, 0x34, 0xbb, 0x34, 0xe5, 0xb2, 0x96, 0xb4, 0xd7, 0xb5, 0xc5, 0xb2, 0x6d, 0x8d, 
  0xd0, 0xab, 0x40, 0xb0, 0xc6, 0xb1, 0x6f, 0x35, 0xde, 0x36, 0x99, 0xb3, 0x27, 0x2c, 0x13, 0xae, 
  0xd2, 0xb0, 0x5d, 0x37, 0xdd, 0xb2, 0xa6, 0xb0, 0xb7, 0x34, 0x88, 0xb0, 0x34, 0xb4, 0x64, 0x35, 
  0xde, 0x33, 0xdb, 0x33, 0x2e, 0x2f, 0xd1, 0xb1, 0x99, 0xb4, 0x1f, 0x35, 0x66, 0x37, 0x60, 0xab, 
  0x82, 0xb4, 0xc3, 0xa9, 0xac, 0x29, 0x9c, 0x21, 0x1c, 0x30, 0xe1, 0x35, 0x4a, 0x34, 0x55, 0xa1, 
  0x15, 0x36, 0x43, 0x9a, 0x53, 0xb2, 0x2e, 0x31, 0x19, 0x1c, 0x70, 0xb7, 0x79, 0xaf, 0x3f, 0x32, 
  0x84, 0xb4, 0xb9, 0xb2, 0x1e, 0xa9, 0x3f, 0x32, 0xee, 0xb6, 0x1c, 0xb3, 0xe1, 0x34, 0xbc, 0xb6, 
  0xae, 0x2d, 0x24, 0x33, 0x6e, 0x2e, 0xec, 0x35, 0x2b, 0x35, 0xab, 0xb6, 0x6a, 0xb0, 0x7d, 0xb2, 
  0x0d, 0xb7, 0x5e, 0xa5, 0x9d, 0x31, 0x95, 0x33, 0xfd, 0xaf, 0xf9, 0xb5, 0xa3, 0x34, 0x5b, 0xb1, 
  0xff, 0x29, 0x1b, 0xb8, 0x4c, 0xb2, 0x7b, 0x30, 0x3a, 0x32, 0x0f, 0xb7, 0xae, 0xb3, 0xf6, 0xa8, 
  0x55, 0xb1, 0x2f, 0xb3, 0x21, 0xa8, 0x1c, 0xa9, 0x16, 0x34, 0xb4, 0xaf, 0x00, 0x00, 0x06, 0x00, 
  0x08, 0x00, 0x04, 0x00, 0x06, 0x00, 0x00, 0x00, 0x04, 0x00, 0x00, 0x00, 0x40, 0x00, 0x00, 0x00, 
  0xd4, 0x2f, 0x69, 0x2e, 0xb3, 0xa4, 0x78, 0x2c, 0x14, 0x9d, 0xb2, 0x25, 0x71, 0x2a, 0xe6, 0xa3, 
  0x60, 0x27, 0xdd, 0xaa, 0xc8, 0x29, 0x55, 0x9c, 0xc3, 0x2c, 0xc2, 0x2b, 0x8c, 0x20, 0xa7, 0x2c, 
  0x58, 0xb0, 0xf3, 0x23, 0x34, 0x2f, 0xd9, 0x2c, 0x6a, 0x2c, 0xab, 0x98, 0xe8, 0xa8, 0xa7, 0xa2, 
  0xec, 0x28, 0x48, 0x2a, 0x27, 0xac, 0xb7, 0xa2, 0xe7, 0x30, 0x39, 0x31, 0xdd, 0x8d, 0x45, 0x15, 
  0x38, 0xf5, 0xff, 0xff, 0x3c, 0xf5, 0xff, 0xff, 0x0f, 0x00, 0x00, 0x00, 0x4d, 0x4c, 0x49, 0x52, 
  0x20, 0x43, 0x6f, 0x6e, 0x76, 0x65, 0x72, 0x74, 0x65, 0x64, 0x2e, 0x00, 0x01, 0x00, 0x00, 0x00, 
  0x14, 0x00, 0x00, 0x00, 0x00, 0x00, 0x0e, 0x00, 0x18, 0x00, 0x14, 0x00, 0x10, 0x00, 0x0c, 0x00, 
  0x08, 0x00, 0x04, 0x00, 0x0e, 0x00, 0x00, 0x00, 0x14, 0x00, 0x00, 0x00, 0x1c, 0x00, 0x00, 0x00, 
  0x5c, 0x02, 0x00, 0x00, 0x60, 0x02, 0x00, 0x00, 0x64, 0x02, 0x00, 0x00, 0x04, 0x00, 0x00, 0x00, 
  0x6d, 0x61, 0x69, 0x6e, 0x00, 0x00, 0x00, 0x00, 0x0d, 0x00, 0x00, 0x00, 0x24, 0x02, 0x00, 0x00, 
  0xf8, 0x01, 0x00, 0x00, 0xd8, 0x01, 0x00, 0x00, 0xb8, 0x01, 0x00, 0x00, 0x98, 0x01, 0x00, 0x00, 
  0x78, 0x01, 0x00, 0x00, 0x58, 0x01, 0x00, 0x00, 0x38, 0x01, 0x00, 0x00, 0xf4, 0x00, 0x00, 0x00, 
  0xa8, 0x00, 0x00, 0x00, 0x6c, 0x00, 0x00, 0x00, 0x34, 0x00, 0x00, 0x00, 0x10, 0x00, 0x00, 0x00, 
  0x00, 0x00, 0x0a, 0x00, 0x10, 0x00, 0x0c, 0x00, 0x08, 0x00, 0x04, 0x00, 0x0a, 0x00, 0x00, 0x00, 
  0x0c, 0x00, 0x00, 0x00, 0x10, 0x00, 0x00, 0x00, 0x02, 0x00, 0x00, 0x00, 0x01, 0x00, 0x00, 0x00, 
  0x15, 0x00, 0x00, 0x00, 0x01, 0x00, 0x00, 0x00, 0x14, 0x00, 0x00, 0x00, 0x5a, 0xff, 0xff, 0xff, 
  0x14, 0x00, 0x00, 0x00, 0x00, 0x00, 0x00, 0x08, 0x10, 0x00, 0x00, 0x00, 0x14, 0x00, 0x00, 0x00, 
  0x01, 0x00, 0x00, 0x00, 0x0c, 0xf6, 0xff, 0xff, 0x01, 0x00, 0x00, 0x00, 0x14, 0x00, 0x00, 0x00, 
  0x03, 0x00, 0x00, 0x00, 0x13, 0x00, 0x00, 0x00, 0x0e, 0x00, 0x00, 0x00, 0x0d, 0x00, 0x00, 0x00, 
  0x8e, 0xff, 0xff, 0xff, 0x14, 0x00, 0x00, 0x00, 0x00, 0x00, 0x00, 0x08, 0x14, 0x00, 0x00, 0x00, 
  0x18, 0x00, 0x00, 0x00, 0x01, 0x00, 0x00, 0x00, 0x7e, 0xff, 0xff, 0xff, 0x00, 0x00, 0x00, 0x01, 
  0x01, 0x00, 0x00, 0x00, 0x13, 0x00, 0x00, 0x00, 0x03, 0x00, 0x00, 0x00, 0x12, 0x00, 0x00, 0x00, 
  0x09, 0x00, 0x00, 0x00, 0x0a, 0x00, 0x00, 0x00, 0xc6, 0xff, 0xff, 0xff, 0x14, 0x00, 0x00, 0x00, 
  0x00, 0x00, 0x00, 0x08, 0x14, 0x00, 0x00, 0x00, 0x18, 0x00, 0x00, 0x00, 0x01, 0x00, 0x00, 0x00, 
  0xb6, 0xff, 0xff, 0xff, 0x00, 0x00, 0x00, 0x01, 0x01, 0x00, 0x00, 0x00, 0x12, 0x00, 0x00, 0x00, 
  0x03, 0x00, 0x00, 0x00, 0x11, 0x00, 0x00, 0x00, 0x0b, 0x00, 0x00, 0x00, 0x0c, 0x00, 0x00, 0x00, 
  0x00, 0x00, 0x0e, 0x00, 0x1a, 0x00, 0x14, 0x00, 0x10, 0x00, 0x0c, 0x00, 0x0b, 0x00, 0x04, 0x00, 
  0x0e, 0x00, 0x00, 0x00, 0x1c, 0x00, 0x00, 0x00, 0x00, 0x00, 0x00, 0x08, 0x1c, 0x00, 0x00, 0x00, 
  0x20, 0x00, 0x00, 0x00, 0x01, 0x00, 0x00, 0x00, 0x00, 0x00, 0x06, 0x00, 0x08, 0x00, 0x07, 0x00, 
  0x06, 0x00, 0x00, 0x00, 0x00, 0x00, 0x00, 0x01, 0x01, 0x00, 0x00, 0x00, 0x11, 0x00, 0x00, 0x00, 
  0x03, 0x00, 0x00, 0x00, 0x00, 0x00, 0x00, 0x00, 0x0f, 0x00, 0x00, 0x00, 0x10, 0x00, 0x00, 0x00, 
  0x3a, 0xff, 0xff, 0xff, 0x08, 0x00, 0x00, 0x00, 0x0c, 0x00, 0x00, 0x00, 0x01, 0x00, 0x00, 0x00, 
  0x10, 0x00, 0x00, 0x00, 0x01, 0x00, 0x00, 0x00, 0x01, 0x00, 0x00, 0x00, 0x56, 0xff, 0xff, 0xff, 
  0x08, 0x00, 0x00, 0x00, 0x0c, 0x00, 0x00, 0x00, 0x01, 0x00, 0x00, 0x00, 0x0f, 0x00, 0x00, 0x00, 
  0x01, 0x00, 0x00, 0x00, 0x02, 0x00, 0x00, 0x00, 0x72, 0xff, 0xff, 0xff, 0x08, 0x00, 0x00, 0x00, 
  0x0c, 0x00, 0x00, 0x00, 0x01, 0x00, 0x00, 0x00, 0x0e, 0x00, 0x00, 0x00, 0x01, 0x00, 0x00, 0x00, 
  0x03, 0x00, 0x00, 0x00, 0x8e, 0xff, 0xff, 0xff, 0x08, 0x00, 0x00, 0x00, 0x0c, 0x00, 0x00, 0x00, 
  0x01, 0x00, 0x00, 0x00, 0x0d, 0x00, 0x00, 0x00, 0x01, 0x00, 0x00, 0x00, 0x04, 0x00, 0x00, 0x00, 
  0xaa, 0xff, 0xff, 0xff, 0x08, 0x00, 0x00, 0x00, 0x0c, 0x00, 0x00, 0x00, 0x01, 0x00, 0x00, 0x00, 
  0x0c, 0x00, 0x00, 0x00, 0x01, 0x00, 0x00, 0x00, 0x05, 0x00, 0x00, 0x00, 0xc6, 0xff, 0xff, 0xff, 
  0x08, 0x00, 0x00, 0x00, 0x0c, 0x00, 0x00, 0x00, 0x01, 0x00, 0x00, 0x00, 0x0b, 0x00, 0x00, 0x00, 
  0x01, 0x00, 0x00, 0x00, 0x06, 0x00, 0x00, 0x00, 0xe2, 0xff, 0xff, 0xff, 0x08, 0x00, 0x00, 0x00, 
  0x0c, 0x00, 0x00, 0x00, 0x01, 0x00, 0x00, 0x00, 0x0a, 0x00, 0x00, 0x00, 0x01, 0x00, 0x00, 0x00, 
  0x07, 0x00, 0x00, 0x00, 0x00, 0x00, 0x0a, 0x00, 0x0c, 0x00, 0x00, 0x00, 0x08, 0x00, 0x04, 0x00, 
  0x0a, 0x00, 0x00, 0x00, 0x08, 0x00, 0x00, 0x00, 0x0c, 0x00, 0x00, 0x00, 0x01, 0x00, 0x00, 0x00, 
  0x09, 0x00, 0x00, 0x00, 0x01, 0x00, 0x00, 0x00, 0x08, 0x00, 0x00, 0x00, 0x01, 0x00, 0x00, 0x00, 
  0x15, 0x00, 0x00, 0x00, 0x01, 0x00, 0x00, 0x00, 0x00, 0x00, 0x00, 0x00, 0x16, 0x00, 0x00, 0x00, 
  0xf0, 0x07, 0x00, 0x00, 0x98, 0x07, 0x00, 0x00, 0x3c, 0x07, 0x00, 0x00, 0xf8, 0x06, 0x00, 0x00, 
  0xb8, 0x06, 0x00, 0x00, 0x78, 0x06, 0x00, 0x00, 0x34, 0x06, 0x00, 0x00, 0xf4, 0x05, 0x00, 0x00, 
  0xb0, 0x05, 0x00, 0x00, 0x70, 0x05, 0x00, 0x00, 0x1c, 0x05, 0x00, 0x00, 0xdc, 0x04, 0x00, 0x00, 
  0xa0, 0x04, 0x00, 0x00, 0x64, 0x04, 0x00, 0x00, 0x24, 0x04, 0x00, 0x00, 0xd8, 0x03, 0x00, 0x00, 
  0x74, 0x03, 0x00, 0x00, 0xe0, 0x02, 0x00, 0x00, 0xe0, 0x01, 0x00, 0x00, 0xdc, 0x00, 0x00, 0x00, 
  0x60, 0x00, 0x00, 0x00, 0x04, 0x00, 0x00, 0x00, 0x7e, 0xf8, 0xff, 0xff, 0x00, 0x00, 0x00, 0x01, 
  0x14, 0x00, 0x00, 0x00, 0x1c, 0x00, 0x00, 0x00, 0x1c, 0x00, 0x00, 0x00, 0x16, 0x00, 0x00, 0x00, 
  0x34, 0x00, 0x00, 0x00, 0x02, 0x00, 0x00, 0x00, 0xff, 0xff, 0xff, 0xff, 0x01, 0x00, 0x00, 0x00, 
  0x68, 0xf8, 0xff, 0xff, 0x1b, 0x00, 0x00, 0x00, 0x53, 0x74, 0x61, 0x74, 0x65, 0x66, 0x75, 0x6c, 
  0x50, 0x61, 0x72, 0x74, 0x69, 0x74, 0x69, 0x6f, 0x6e, 0x65, 0x64, 0x43, 0x61, 0x6c, 0x6c, 0x5f, 
  0x31, 0x3a, 0x30, 0x00, 0x02, 0x00, 0x00, 0x00, 0x01, 0x00, 0x00, 0x00, 0x01, 0x00, 0x00, 0x00, 
  0xd6, 0xf8, 0xff, 0xff, 0x00, 0x00, 0x00, 0x01, 0x14, 0x00, 0x00, 0x00, 0x1c, 0x00, 0x00, 0x00, 
  0x1c, 0x00, 0x00, 0x00, 0x15, 0x00, 0x00, 0x00, 0x54, 0x00, 0x00, 0x00, 0x02, 0x00, 0x00, 0x00, 
  0xff, 0xff, 0xff, 0xff, 0x01, 0x00, 0x00, 0x00, 0xc0, 0xf8, 0xff, 0xff, 0x38, 0x00, 0x00, 0x00, 
  0x73, 0x65, 0x71, 0x75, 0x65, 0x6e, 0x74, 0x69, 0x61, 0x6c, 0x5f, 0x31, 0x2f, 0x64, 0x65, 0x6e, 
  0x73, 0x65, 0x5f, 0x33, 0x5f, 0x31, 0x2f, 0x4d, 0x61, 0x74, 0x4d, 0x75, 0x6c, 0x3b, 0x73, 0x65, 
  0x71, 0x75, 0x65, 0x6e, 0x74, 0x69, 0x61, 0x6c, 0x5f, 0x31, 0x2f, 0x64, 0x65, 0x6e, 0x73, 0x65, 
  0x5f, 0x33, 0x5f, 0x31, 0x2f, 0x41, 0x64, 0x64, 0x00, 0x00, 0x00, 0x00, 0x02, 0x00, 0x00, 0x00, 
  0x01, 0x00, 0x00, 0x00, 0x01, 0x00, 0x00, 0x00, 0x4e, 0xf9, 0xff, 0xff, 0x00, 0x00, 0x00, 0x01, 
  0x14, 0x00, 0x00, 0x00, 0x1c, 0x00, 0x00, 0x00, 0x1c, 0x00, 0x00, 0x00, 0x14, 0x00, 0x00, 0x00, 
  0xdc, 0x00, 0x00, 0x00, 0x02, 0x00, 0x00, 0x00, 0xff, 0xff, 0xff, 0xff, 0x08, 0x00, 0x00, 0x00, 
  0x38, 0xf9, 0xff, 0xff, 0xc2, 0x00, 0x00, 0x00, 0x73, 0x65, 0x71, 0x75, 0x65, 0x6e, 0x74, 0x69, 
  0x61, 0x6c, 0x5f, 0x31, 0x2f, 0x62, 0x61, 0x74, 0x63, 0x68, 0x5f, 0x6e, 0x6f, 0x72, 0x6d, 0x61, 
  0x6c, 0x69, 0x7a, 0x61, 0x74, 0x69, 0x6f, 0x6e, 0x5f, 0x31, 0x5f, 0x32, 0x2f, 0x62, 0x61, 0x74, 
  0x63, 0x68, 0x6e, 0x6f, 0x72, 0x6d, 0x2f, 0x6d, 0x75, 0x6c, 0x5f, 0x31, 0x3b, 0x73, 0x65, 0x71, 
  0x75, 0x65, 0x6e, 0x74, 0x69, 0x61, 0x6c, 0x5f, 0x31, 0x2f, 0x62, 0x61, 0x74, 0x63, 0x68, 0x5f, 
  0x6e, 0x6f, 0x72, 0x6d, 0x61, 0x6c, 0x69, 0x7a, 0x61, 0x74, 0x69, 0x6f, 0x6e, 0x5f, 0x31, 0x5f, 
  0x32, 0x2f, 0x62, 0x61, 0x74, 0x63, 0x68, 0x6e, 0x6f, 0x72, 0x6d, 0x2f, 0x61, 0x64, 0x64, 0x5f, 
  0x31, 0x3b, 0x73, 0x65, 0x71, 0x75, 0x65, 0x6e, 0x74, 0x69, 0x61, 0x6c, 0x5f, 0x31, 0x2f, 0x64, 
  0x65, 0x6e, 0x73, 0x65, 0x5f, 0x32, 0x5f, 0x31, 0x2f, 0x4d, 0x61, 0x74, 0x4d, 0x75, 0x6c, 0x3b, 
  0x73, 0x65, 0x71, 0x75, 0x65, 0x6e, 0x74, 0x69, 0x61, 0x6c, 0x5f, 0x31, 0x2f, 0x64, 0x65, 0x6e, 
  0x73, 0x65, 0x5f, 0x32, 0x5f, 0x31, 0x2f, 0x52, 0x65, 0x6c, 0x75, 0x3b, 0x73, 0x65, 0x71, 0x75, 
  0x65, 0x6e, 0x74, 0x69, 0x61, 0x6c, 0x5f, 0x31, 0x2f, 0x64, 0x65, 0x6e, 0x73, 0x65, 0x5f, 0x32, 
  0x5f, 0x31, 0x2f, 0x42, 0x69, 0x61, 0x73, 0x41, 0x64, 0x64, 0x00, 0x00, 0x02, 0x00, 0x00, 0x00, 
  0x01, 0x00, 0x00, 0x00, 0x08, 0x00, 0x00, 0x00, 0x4e, 0xfa, 0xff, 0xff, 0x00, 0x00, 0x00, 0x01, 
  0x14, 0x00, 0x00, 0x00, 0x1c, 0x00, 0x00, 0x00, 0x1c, 0x00, 0x00, 0x00, 0x13, 0x00, 0x00, 0x00, 
  0xd8, 0x00, 0x00, 0x00, 0x02, 0x00, 0x00, 0x00, 0xff, 0xff, 0xff, 0xff, 0x10, 0x00, 0x00, 0x00, 
  0x38, 0xfa, 0xff, 0xff, 0xbe, 0x00, 0x00, 0x00, 0x73, 0x65, 0x71, 0x75, 0x65, 0x6e, 0x74, 0x69, 
  0x61, 0x6c, 0x5f, 0x31, 0x2f, 0x62, 0x61, 0x74, 0x63, 0x68, 0x5f, 0x6e, 0x6f, 0x72, 0x6d, 0x61, 
  0x6c, 0x69, 0x7a, 0x61, 0x74, 0x69, 0x6f, 0x6e, 0x5f, 0x31, 0x2f, 0x62, 0x61, 0x74, 0x63, 0x68, 
  0x6e, 0x6f, 0x72, 0x6d, 0x2f, 0x6d, 0x75, 0x6c, 0x5f, 0x31, 0x3b, 0x73, 0x65, 0x71, 0x75, 0x65, 
  0x6e, 0x74, 0x69, 0x61, 0x6c, 0x5f, 0x31, 0x2f, 0x62, 0x61, 0x74, 0x63, 0x68, 0x5f, 0x6e, 0x6f, 
  0x72, 0x6d, 0x61, 0x6c, 0x69, 0x7a, 0x61, 0x74, 0x69, 0x6f, 0x6e, 0x5f, 0x31, 0x2f, 0x62, 0x61, 
  0x74, 0x63, 0x68, 0x6e, 0x6f, 0x72, 0x6d, 0x2f, 0x61, 0x64, 0x64, 0x5f, 0x31, 0x3b, 0x73, 0x65, 
  0x71, 0x75, 0x65, 0x6e, 0x74, 0x69, 0x61, 0x6c, 0x5f, 0x31, 0x2f, 0x64, 0x65, 0x6e, 0x73, 0x65, 
  0x5f, 0x31, 0x5f, 0x32, 0x2f, 0x4d, 0x61, 0x74, 0x4d, 0x75, 0x6c, 0x3b, 0x73, 0x65, 0x71, 0x75, 
  0x65, 0x6e, 0x74, 0x69, 0x61, 0x6c, 0x5f, 0x31, 0x2f, 0x64, 0x65, 0x6e, 0x73, 0x65, 0x5f, 0x31, 
  0x5f, 0x32, 0x2f, 0x52, 0x65, 0x6c, 0x75, 0x3b, 0x73, 0x65, 0x71, 0x75, 0x65, 0x6e, 0x74, 0x69, 
  0x61, 0x6c, 0x5f, 0x31, 0x2f, 0x64, 0x65, 0x6e, 0x73, 0x65, 0x5f, 0x31, 0x5f, 0x32, 0x2f, 0x42, 
  0x69, 0x61, 0x73, 0x41, 0x64, 0x64, 0x00, 0x00, 0x02, 0x00, 0x00, 0x00, 0x01, 0x00, 0x00, 0x00, 
  0x10, 0x00, 0x00, 0x00, 0x4a, 0xfb, 0xff, 0xff, 0x00, 0x00, 0x00, 0x01, 0x14, 0x00, 0x00, 0x00, 
  0x1c, 0x00, 0x00, 0x00, 0x1c, 0x00, 0x00, 0x00, 0x12, 0x00, 0x00, 0x00, 0x6c, 0x00, 0x00, 0x00, 
  0x02, 0x00, 0x00, 0x00, 0xff, 0xff, 0xff, 0xff, 0x20, 0x00, 0x00, 0x00, 0x34, 0xfb, 0xff, 0xff, 
  0x52, 0x00, 0x00, 0x00, 0x73, 0x65, 0x71, 0x75, 0x65, 0x6e, 0x74, 0x69, 0x61, 0x6c, 0x5f, 0x31, 
  0x2f, 0x64, 0x65, 0x6e, 0x73, 0x65, 0x5f, 0x31, 0x2f, 0x4d, 0x61, 0x74, 0x4d, 0x75, 0x6c, 0x3b, 
  0x73, 0x65, 0x71, 0x75, 0x65, 0x6e, 0x74, 0x69, 0x61, 0x6c, 0x5f, 0x31, 0x2f, 0x64, 0x65, 0x6e, 
  0x73, 0x65, 0x5f, 0x31, 0x2f, 0x52, 0x65, 0x6c, 0x75, 0x3b, 0x73, 0x65, 0x71, 0x75, 0x65, 0x6e, 
  0x74, 0x69, 0x61, 0x6c, 0x5f, 0x31, 0x2f, 0x64, 0x65, 0x6e, 0x73, 0x65, 0x5f, 0x31, 0x2f, 0x42, 
  0x69, 0x61, 0x73, 0x41, 0x64, 0x64, 0x00, 0x00, 0x02, 0x00, 0x00, 0x00, 0x01, 0x00, 0x00, 0x00, 
  0x20, 0x00, 0x00, 0x00, 0x36, 0xfe, 0xff, 0xff, 0x00, 0x00, 0x00, 0x01, 0x10, 0x00, 0x00, 0x00, 
  0x10, 0x00, 0x00, 0x00, 0x11, 0x00, 0x00, 0x00, 0x44, 0x00, 0x00, 0x00, 0xb4, 0xfb, 0xff, 0xff, 
  0x36, 0x00, 0x00, 0x00, 0x73, 0x65, 0x71, 0x75, 0x65, 0x6e, 0x74, 0x69, 0x61, 0x6c, 0x5f, 0x31, 
  0x2f, 0x64, 0x65, 0x6e, 0x73, 0x65, 0x5f, 0x31, 0x2f, 0x52, 0x65, 0x6c, 0x75, 0x3b, 0x73, 0x65, 
  0x71, 0x75, 0x65, 0x6e, 0x74, 0x69, 0x61, 0x6c, 0x5f, 0x31, 0x2f, 0x64, 0x65, 0x6e, 0x73, 0x65, 
  0x5f, 0x31, 0x2f, 0x42, 0x69, 0x61, 0x73, 0x41, 0x64, 0x64, 0x00, 0x00, 0x01, 0x00, 0x00, 0x00, 
  0x20, 0x00, 0x00, 0x00, 0x96, 0xfe, 0xff, 0xff, 0x00, 0x00, 0x00, 0x01, 0x10, 0x00, 0x00, 0x00, 
  0x10, 0x00, 0x00, 0x00, 0x10, 0x00, 0x00, 0x00, 0x28, 0x00, 0x00, 0x00, 0x14, 0xfc, 0xff, 0xff, 
  0x1b, 0x00, 0x00, 0x00, 0x73, 0x65, 0x71, 0x75, 0x65, 0x6e, 0x74, 0x69, 0x61, 0x6c, 0x5f, 0x31, 
  0x2f, 0x64, 0x65, 0x6e, 0x73, 0x65, 0x5f, 0x31, 0x2f, 0x4d, 0x61, 0x74, 0x4d, 0x75, 0x6c, 0x00, 
  0x02, 0x00, 0x00, 0x00, 0x20, 0x00, 0x00, 0x00, 0x04, 0x00, 0x00, 0x00, 0xde, 0xfe, 0xff, 0xff, 
  0x00, 0x00, 0x00, 0x01, 0x10, 0x00, 0x00, 0x00, 0x10, 0x00, 0x00, 0x00, 0x0f, 0x00, 0x00, 0x00, 
  0x1c, 0x00, 0x00, 0x00, 0x5c, 0xfc, 0xff, 0xff, 0x0f, 0x00, 0x00, 0x00, 0x74, 0x66, 0x6c, 0x2e, 
  0x64, 0x65, 0x71, 0x75, 0x61, 0x6e, 0x74, 0x69, 0x7a, 0x65, 0x35, 0x00, 0x02, 0x00, 0x00, 0x00, 
  0x01, 0x00, 0x00, 0x00, 0x08, 0x00, 0x00, 0x00, 0x1a, 0xff, 0xff, 0xff, 0x00, 0x00, 0x00, 0x01, 
  0x10, 0x00, 0x00, 0x00, 0x10, 0x00, 0x00, 0x00, 0x0e, 0x00, 0x00, 0x00, 0x1c, 0x00, 0x00, 0x00, 
  0x98, 0xfc, 0xff, 0xff, 0x0f, 0x00, 0x00, 0x00, 0x74, 0x66, 0x6c, 0x2e, 0x64, 0x65, 0x71, 0x75, 
  0x61, 0x6e, 0x74, 0x69, 0x7a, 0x65, 0x34, 0x00, 0x01, 0x00, 0x00, 0x00, 0x01, 0x00, 0x00, 0x00, 
  0x52, 0xff, 0xff, 0xff, 0x00, 0x00, 0x00, 0x01, 0x10, 0x00, 0x00, 0x00, 0x10, 0x00, 0x00, 0x00, 
  0x0d, 0x00, 0x00, 0x00, 0x1c, 0x00, 0x00, 0x00, 0xd0, 0xfc, 0xff, 0xff, 0x0f, 0x00, 0x00, 0x00, 
  0x74, 0x66, 0x6c, 0x2e, 0x64, 0x65, 0x71, 0x75, 0x61, 0x6e, 0x74, 0x69, 0x7a, 0x65, 0x33, 0x00, 
  0x01, 0x00, 0x00, 0x00, 0x10, 0x00, 0x00, 0x00, 0x8a, 0xff, 0xff, 0xff, 0x00, 0x00, 0x00, 0x01, 
  0x10, 0x00, 0x00, 0x00, 0x10, 0x00, 0x00, 0x00, 0x0c, 0x00, 0x00, 0x00, 0x1c, 0x00, 0x00, 0x00, 
  0x08, 0xfd, 0xff, 0xff, 0x0f, 0x00, 0x00, 0x00, 0x74, 0x66, 0x6c, 0x2e, 0x64, 0x65, 0x71, 0x75, 
  0x61, 0x6e, 0x74, 0x69, 0x7a, 0x65, 0x32, 0x00, 0x02, 0x00, 0x00, 0x00, 0x10, 0x00, 0x00, 0x00, 
  0x20, 0x00, 0x00, 0x00, 0xc6, 0xff, 0xff, 0xff, 0x00, 0x00, 0x00, 0x01, 0x10, 0x00, 0x00, 0x00, 
  0x10, 0x00, 0x00, 0x00, 0x0b, 0x00, 0x00, 0x00, 0x1c, 0x00, 0x00, 0x00, 0x44, 0xfd, 0xff, 0xff, 
  0x0f, 0x00, 0x00, 0x00, 0x74, 0x66, 0x6c, 0x2e, 0x64, 0x65, 0x71, 0x75, 0x61, 0x6e, 0x74, 0x69, 
  0x7a, 0x65, 0x31, 0x00, 0x01, 0x00, 0x00, 0x00, 0x08, 0x00, 0x00, 0x00, 0x00, 0x00, 0x16, 0x00, 
  0x18, 0x00, 0x14, 0x00, 0x00, 0x00, 0x10, 0x00, 0x0c, 0x00, 0x08, 0x00, 0x00, 0x00, 0x00, 0x00, 
  0x00, 0x00, 0x07, 0x00, 0x16, 0x00, 0x00, 0x00, 0x00, 0x00, 0x00, 0x01, 0x10, 0x00, 0x00, 0x00, 
  0x10, 0x00, 0x00, 0x00, 0x0a, 0x00, 0x00, 0x00, 0x1c, 0x00, 0x00, 0x00, 0x94, 0xfd, 0xff, 0xff, 
  0x0e, 0x00, 0x00, 0x00, 0x74, 0x66, 0x6c, 0x2e, 0x64, 0x65, 0x71, 0x75, 0x61, 0x6e, 0x74, 0x69, 
  0x7a, 0x65, 0x00, 0x00, 0x02, 0x00, 0x00, 0x00, 0x08, 0x00, 0x00, 0x00, 0x10, 0x00, 0x00, 0x00, 
  0x4a, 0xfe, 0xff, 0xff, 0x00, 0x00, 0x00, 0x01, 0x14, 0x00, 0x00, 0x00, 0x14, 0x00, 0x00, 0x00, 
  0x09, 0x00, 0x00, 0x00, 0x00, 0x00, 0x00, 0x01, 0x1c, 0x00, 0x00, 0x00, 0xd4, 0xfd, 0xff, 0xff, 
  0x0f, 0x00, 0x00, 0x00, 0x61, 0x72, 0x69, 0x74, 0x68, 0x2e, 0x63, 0x6f, 0x6e, 0x73, 0x74, 0x61, 
  0x6e, 0x74, 0x37, 0x00, 0x02, 0x00, 0x00, 0x00, 0x08, 0x00, 0x00, 0x00, 0x10, 0x00, 0x00, 0x00, 
  0x8a, 0xfe, 0xff, 0xff, 0x00, 0x00, 0x00, 0x01, 0x14, 0x00, 0x00, 0x00, 0x14, 0x00, 0x00, 0x00, 
  0x08, 0x00, 0x00, 0x00, 0x00, 0x00, 0x00, 0x01, 0x1c, 0x00, 0x00, 0x00, 0x14, 0xfe, 0xff, 0xff, 
  0x0f, 0x00, 0x00, 0x00, 0x61, 0x72, 0x69, 0x74, 0x68, 0x2e, 0x63, 0x6f, 0x6e, 0x73, 0x74, 0x61, 
  0x6e, 0x74, 0x36, 0x00, 0x01, 0x00, 0x00, 0x00, 0x08, 0x00, 0x00, 0x00, 0xc6, 0xfe, 0xff, 0xff, 
  0x00, 0x00, 0x00, 0x01, 0x14, 0x00, 0x00, 0x00, 0x14, 0x00, 0x00, 0x00, 0x07, 0x00, 0x00, 0x00, 
  0x00, 0x00, 0x00, 0x01, 0x1c, 0x00, 0x00, 0x00, 0x50, 0xfe, 0xff, 0xff, 0x0f, 0x00, 0x00, 0x00, 
  0x61, 0x72, 0x69, 0x74, 0x68, 0x2e, 0x63, 0x6f, 0x6e, 0x73, 0x74, 0x61, 0x6e, 0x74, 0x35, 0x00, 
  0x02, 0x00, 0x00, 0x00, 0x10, 0x00, 0x00, 0x00, 0x20, 0x00, 0x00, 0x00, 0x06, 0xff, 0xff, 0xff, 
  0x00, 0x00, 0x00, 0x01, 0x14, 0x00, 0x00, 0x00, 0x14, 0x00, 0x00, 0x00, 0x06, 0x00, 0x00, 0x00, 
  0x00, 0x00, 0x00, 0x01, 0x1c, 0x00, 0x00, 0x00, 0x90, 0xfe, 0xff, 0xff, 0x0f, 0x00, 0x00, 0x00, 
  0x61, 0x72, 0x69, 0x74, 0x68, 0x2e, 0x63, 0x6f, 0x6e, 0x73, 0x74, 0x61, 0x6e, 0x74, 0x34, 0x00, 
  0x01, 0x00, 0x00, 0x00, 0x10, 0x00, 0x00, 0x00, 0x42, 0xff, 0xff, 0xff, 0x00, 0x00, 0x00, 0x01, 
  0x14, 0x00, 0x00, 0x00, 0x14, 0x00, 0x00, 0x00, 0x05, 0x00, 0x00, 0x00, 0x00, 0x00, 0x00, 0x01, 
  0x1c, 0x00, 0x00, 0x00, 0xcc, 0xfe, 0xff, 0xff, 0x0f, 0x00, 0x00, 0x00, 0x61, 0x72, 0x69, 0x74, 
  0x68, 0x2e, 0x63, 0x6f, 0x6e, 0x73, 0x74, 0x61, 0x6e, 0x74, 0x33, 0x00, 0x01, 0x00, 0x00, 0x00, 
  0x01, 0x00, 0x00, 0x00, 0x7e, 0xff, 0xff, 0xff, 0x00, 0x00, 0x00, 0x01, 0x14, 0x00, 0x00, 0x00, 
  0x14, 0x00, 0x00, 0x00, 0x04, 0x00, 0x00, 0x00, 0x00, 0x00, 0x00, 0x01, 0x1c, 0x00, 0x00, 0x00, 
  0x08, 0xff, 0xff, 0xff, 0x0f, 0x00, 0x00, 0x00, 0x61, 0x72, 0x69, 0x74, 0x68, 0x2e, 0x63, 0x6f, 
  0x6e, 0x73, 0x74, 0x61, 0x6e, 0x74, 0x32, 0x00, 0x02, 0x00, 0x00, 0x00, 0x01, 0x00, 0x00, 0x00, 
  0x08, 0x00, 0x00, 0x00, 0xbe, 0xff, 0xff, 0xff, 0x00, 0x00, 0x00, 0x01, 0x14, 0x00, 0x00, 0x00, 
  0x14, 0x00, 0x00, 0x00, 0x03, 0x00, 0x00, 0x00, 0x00, 0x00, 0x00, 0x01, 0x1c, 0x00, 0x00, 0x00, 
  0x48, 0xff, 0xff, 0xff, 0x0f, 0x00, 0x00, 0x00, 0x61, 0x72, 0x69, 0x74, 0x68, 0x2e, 0x63, 0x6f, 
  0x6e, 0x73, 0x74, 0x61, 0x6e, 0x74, 0x31, 0x00, 0x02, 0x00, 0x00, 0x00, 0x20, 0x00, 0x00, 0x00, 
  0x04, 0x00, 0x00, 0x00, 0x00, 0x00, 0x16, 0x00, 0x1c, 0x00, 0x18, 0x00, 0x17, 0x00, 0x10, 0x00, 
  0x0c, 0x00, 0x08, 0x00, 0x00, 0x00, 0x00, 0x00, 0x00, 0x00, 0x07, 0x00, 0x16, 0x00, 0x00, 0x00, 
  0x00, 0x00, 0x00, 0x01, 0x14, 0x00, 0x00, 0x00, 0x14, 0x00, 0x00, 0x00, 0x02, 0x00, 0x00, 0x00, 
  0x00, 0x00, 0x00, 0x01, 0x1c, 0x00, 0x00, 0x00, 0xa0, 0xff, 0xff, 0xff, 0x0e, 0x00, 0x00, 0x00, 
  0x61, 0x72, 0x69, 0x74, 0x68, 0x2e, 0x63, 0x6f, 0x6e, 0x73, 0x74, 0x61, 0x6e, 0x74, 0x00, 0x00, 
  0x01, 0x00, 0x00, 0x00, 0x20, 0x00, 0x00, 0x00, 0x00, 0x00, 0x16, 0x00, 0x1c, 0x00, 0x18, 0x00, 
  0x00, 0x00, 0x14, 0x00, 0x10, 0x00, 0x0c, 0x00, 0x00, 0x00, 0x00, 0x00, 0x08, 0x00, 0x07, 0x00, 
  0x16, 0x00, 0x00, 0x00, 0x00, 0x00, 0x00, 0x01, 0x14, 0x00, 0x00, 0x00, 0x20, 0x00, 0x00, 0x00, 
  0x20, 0x00, 0x00, 0x00, 0x01, 0x00, 0x00, 0x00, 0x3c, 0x00, 0x00, 0x00, 0x02, 0x00, 0x00, 0x00, 
  0xff, 0xff, 0xff, 0xff, 0x04, 0x00, 0x00, 0x00, 0x04, 0x00, 0x04, 0x00, 0x04, 0x00, 0x00, 0x00, 
  0x1e, 0x00, 0x00, 0x00, 0x73, 0x65, 0x72, 0x76, 0x69, 0x6e, 0x67, 0x5f, 0x64, 0x65, 0x66, 0x61, 
  0x75, 0x6c, 0x74, 0x5f, 0x6b, 0x65, 0x72, 0x61, 0x73, 0x5f, 0x74, 0x65, 0x6e, 0x73, 0x6f, 0x72, 
  0x3a, 0x30, 0x00, 0x00, 0x02, 0x00, 0x00, 0x00, 0x01, 0x00, 0x00, 0x00, 0x04, 0x00, 0x00, 0x00, 
  0x03, 0x00, 0x00, 0x00, 0x3c, 0x00, 0x00, 0x00, 0x20, 0x00, 0x00, 0x00, 0x04, 0x00, 0x00, 0x00, 
  0xf4, 0xff, 0xff, 0xff, 0x0e, 0x00, 0x00, 0x00, 0x00, 0x00, 0x00, 0x0e, 0x0c, 0x00, 0x0c, 0x00, 
  0x0b, 0x00, 0x00, 0x00, 0x00, 0x00, 0x04, 0x00, 0x0c, 0x00, 0x00, 0x00, 0x09, 0x00, 0x00, 0x00, 
  0x00, 0x00, 0x00, 0x09, 0x0c, 0x00, 0x10, 0x00, 0x0f, 0x00, 0x00, 0x00, 0x08, 0x00, 0x04, 0x00, 
  0x0c, 0x00, 0x00, 0x00, 0x06, 0x00, 0x00, 0x00, 0x03, 0x00, 0x00, 0x00, 0x00, 0x00, 0x00, 0x06
};

#endif // MODEL_H
